. 102628
, 76056
de 67539
en 43146
een 39971
het 38130
van 35026
is 33462
in 28385
dat 27680
te 24080
je 21445
k@@ 20806
ik 18302
ge@@ 16565
die 16442
we 15960
ver@@ 15824
zijn 15558
er 15041
op 14505
be@@ 13916
d@@ 13565
niet 12736
e@@ 12695
om 12369
ze 12212
er@@ 12206
&quot; 12017
en@@ 11630
st@@ 11068
met 10830
den 10680
t@@ 10423
Ik 10321
voor 10307
: 10244
s 10059
i@@ 10016
z@@ 9943
s@@ 9864
v@@ 9679
als 9591
t 9458
g@@ 9296
in@@ 9188
g 8968
aan 8867
m@@ 8727
f@@ 8571
b@@ 8502
Het 8493
k 8449
on@@ 8368
le@@ 8283
u@@ 8162
re@@ 8037
? 8009
wat 7916
o@@ 7889
an@@ 7887
gen 7865
a 7664
a@@ 7650
En 7552
was 7549
n@@ 7443
op@@ 7435
over 7370
d 7331
dit 7110
naar 6938
hebben 6931
-- 6875
di@@ 6856
ie@@ 6797
deze 6782
ten 6743
p@@ 6582
&apos; 6466
el@@ 6444
r@@ 6359
l@@ 6204
-@@ 6194
of 6082
dan 6070
w@@ 6035
al@@ 6035
maar 6002
e 5911
ken 5810
de@@ 5698
We 5611
at@@ 5519
we@@ 5449
sch@@ 5427
ar@@ 5421
uit 5345
st 5338
mensen 5324
M@@ 5308
al 5302
kt 5265
sp@@ 5074
uit@@ 5030
h@@ 5025
eren 4985
me@@ 4978
D@@ 4964
S@@ 4936
me 4935
De 4931
cht 4884
kunnen 4882
door 4881
ie 4851
ing 4848
mijn 4773
c@@ 4723
W@@ 4683
waar@@ 4664
voor@@ 4623
m 4525
te@@ 4442
B@@ 4413
Maar 4409
om@@ 4401
ons 4371
ch@@ 4324
kan 4319
Dit 4293
zo 4244
or@@ 4162
f 4109
doen 4072
j@@ 4066
it@@ 4063
ook 4046
li@@ 4043
ven 4027
ste 4010
l 3996
oo@@ 3947
ma@@ 3933
aa@@ 3894
zien 3886
ze@@ 3829
hij 3769
Ze 3762
veel 3749
p 3740
bij 3729
Dat 3724
gen@@ 3695
ij@@ 3670
gel@@ 3668
jaar 3642
N@@ 3576
aar@@ 3559
ge 3547
A@@ 3505
aan@@ 3480
waar 3455
men 3451
zou 3436
et 3414
geen 3397
ur@@ 3385
ter@@ 3314
atie 3313
H@@ 3291
meer 3286
ra@@ 3286
el 3275
gaan 3268
O@@ 3242
den@@ 3234
V@@ 3222
gev@@ 3219
ti@@ 3213
hoe 3211
Z@@ 3208
nog 3182
heeft 3116
i 3109
T@@ 3106
der 3091
ingen 3086
la@@ 3085
ne@@ 3083
wereld 3072
hun 3042
oor@@ 3028
onder@@ 3026
worden 3016
hier 3013
vol@@ 3012
Dus 3005
onze 2973
ijk 2972
sen 2964
E@@ 2951
tot 2949
wer@@ 2949
nu 2948
iets 2934
maken 2934
ende 2934
C@@ 2924
der@@ 2904
o 2900
Je 2900
heid 2886
ro@@ 2883
ijke 2882
is@@ 2878
G@@ 2856
pen 2843
P@@ 2840
am@@ 2833
dingen 2829
rij@@ 2818
over@@ 2813
Als 2791
ri@@ 2778
leven 2762
zi@@ 2758
end 2755
he@@ 2744
K@@ 2737
men@@ 2731
J@@ 2716
il@@ 2713
ap@@ 2706
tie 2701
heb 2690
af@@ 2687
da@@ 2683
geb@@ 2676
andere 2674
oe@@ 2662
at 2659
1@@ 2616
ter 2595
ol@@ 2594
ken@@ 2588
ond 2549
ot@@ 2509
tr@@ 2508
ul@@ 2488
had 2484
jullie 2473
len 2467
♫ 2440
kken 2414
ste@@ 2413
ou@@ 2412
per@@ 2402
aal 2394
wel 2373
stu@@ 2366
an 2356
es 2356
aten 2354
lo@@ 2350
L@@ 2343
y@@ 2330
ers 2298
Hij 2295
moeten 2280
wij@@ 2279
echt 2263
ac@@ 2263
- 2262
I@@ 2258
nen 2245
ë@@ 2231
gt 2231
zal 2229
u 2223
gaat 2218
heel 2212
R@@ 2207
dus 2195
gr@@ 2174
pa@@ 2171
omdat 2168
komen 2168
se@@ 2147
do@@ 2142
Wat 2126
lijk 2101
vo@@ 2099
to@@ 2098
sche 2096
za@@ 2093
ru@@ 2090
ale 2083
ve@@ 2080
ic@@ 2079
moet 2075
moe@@ 2068
and 2066
se 2065
Er 2061
In 2049
mo@@ 2044
wil 2030
no@@ 2030
ont@@ 2022
toe@@ 2005
ber@@ 2003
ben 1986
zoals 1963
ij 1955
ig@@ 1955
ster@@ 1950
twee 1947
eld 1944
wordt 1939
her@@ 1935
zich 1930
tijd 1930
sten 1923
mi@@ 1915
bo@@ 1910
ei@@ 1910
één 1907
ging 1903
aar 1903
zen 1901
goed 1898
chten 1897
Een 1892
hel@@ 1884
zei 1876
du@@ 1875
zelf 1873
zo@@ 1871
del@@ 1868
na 1867
ta@@ 1866
vor@@ 1863
tel@@ 1860
ig 1855
gro@@ 1843
em@@ 1840
cht@@ 1837
iek 1836
ere 1821
bij@@ 1818
eer@@ 1803
erd 1803
waren 1803
os@@ 1801
hu@@ 1786
daar 1776
elen 1772
ijk@@ 1739
wa@@ 1735
con@@ 1723
kte 1707
eerste 1702
ger@@ 1699
laten 1687
dig 1684
iteit 1678
au@@ 1674
ding 1670
us 1669
geven 1669
denk 1667
ker 1662
ni@@ 1661
tu@@ 1658
ke@@ 1646
alleen 1628
ens 1628
mee 1627
alle 1617
vi@@ 1607
haar 1598
lu@@ 1591
manier 1587
stel@@ 1584
staat 1579
werd 1576
open 1572
weet 1561
le 1557
id 1557
ing@@ 1554
daar@@ 1543
denken 1542
lan@@ 1541
ant 1538
soort 1535
ele 1534
zeggen 1533
lij@@ 1528
bl@@ 1528
mij 1520
w 1519
th@@ 1501
na@@ 1493
oel 1492
van@@ 1489
dt 1474
un@@ 1474
bi@@ 1466
jes 1466
kle@@ 1459
kk@@ 1457
lie@@ 1452
delijk 1445
grote 1443
ven@@ 1442
ies 1442
hele 1440
n 1437
hoe@@ 1434
erg 1431
komt 1431
allemaal 1426
... 1415
F@@ 1412
toen 1410
es@@ 1404
ab@@ 1404
ec@@ 1395
gi@@ 1395
oon 1394
schap 1393
kinderen 1390
2@@ 1384
kun@@ 1383
ree@@ 1373
str@@ 1370
werk 1366
ke 1362
fe@@ 1356
sta@@ 1355
sle@@ 1355
ën 1351
ft 1350
si@@ 1349
br@@ 1344
tre@@ 1327
sie 1321
nieuwe 1319
gens 1314
as@@ 1312
pro@@ 1311
hem 1309
man@@ 1307
kijken 1306
and@@ 1296
bel@@ 1295
ische 1293
ko@@ 1290
5 1288
onden 1282
net 1279
werken 1276
af 1275
su@@ 1272
dige 1265
weten 1264
dr@@ 1250
va@@ 1246
y 1242
voe@@ 1233
ati@@ 1233
zelfde 1232
id@@ 1228
uur 1221
inter@@ 1218
zouden 1218
wel@@ 1217
kel@@ 1217
on 1215
sen@@ 1215
ik@@ 1212
ef@@ 1211
ige 1210
oord 1209
dag 1208
ger 1204
ur 1201
ha@@ 1193
vinden 1189
nodig 1187
sla@@ 1185
eens 1182
sl@@ 1180
ziet 1180
deren 1174
isch 1173
han@@ 1173
ga 1170
een@@ 1169
ks 1169
gra@@ 1168
deel 1168
ein@@ 1168
alles 1162
dig@@ 1162
tij@@ 1162
oren 1159
0 1153
staan 1148
eerd 1147
app@@ 1145
ief 1143
aak 1143
x@@ 1136
gelu@@ 1135
ou 1134
kra@@ 1133
idee 1131
ep@@ 1130
willen 1130
zon@@ 1129
ple@@ 1128
mu@@ 1124
hadden 1121
zullen 1120
plan@@ 1118
gebeur@@ 1117
wi@@ 1115
ten@@ 1114
delen 1112
ga@@ 1109
krijgen 1100
ouw@@ 1100
kunt 1098
enen 1096
aam 1093
iemand 1092
pl@@ 1091
drie 1091
per 1090
land 1090
want 1089
ach@@ 1085
weten@@ 1085
Hier 1084
ex@@ 1082
gewoon 1080
ed 1078
kleine 1077
iden 1077
verander@@ 1074
mid@@ 1070
besch@@ 1069
pers@@ 1068
Deze 1068
hebt 1066
kan@@ 1063
dacht 1060
beg@@ 1060
chte 1059
oor 1058
erde 1054
blij@@ 1050
gebruiken 1050
maa@@ 1048
schapp@@ 1047
baar 1045
vrou@@ 1042
wij 1041
ged@@ 1040
ker@@ 1040
weg 1034
ert 1030
boe@@ 1029
ongeveer 1023
TED 1022
im@@ 1020
man 1015
zeer 1014
bin@@ 1013
sel@@ 1012
tten 1011
it 1003
mil@@ 1001
elkaar 1001
spre@@ 1001
cre@@ 999
king 993
paar 992
zor@@ 990
versch@@ 988
misschien 985
tegen 982
onder 981
! 974
tussen 971
ijn 970
ent 969
zonder 966
gd 964
kon 963
zelfs 962
aag 961
Hoe 960
vri@@ 959
geleden 959
gan@@ 955
toe 953
verk@@ 952
zij 952
ders 951
natuur@@ 950
pre@@ 949
of@@ 949
ek 948
zoe@@ 948
eel 947
vraag 947
bu@@ 945
ir@@ 943
vel@@ 941
Nu 940
iz@@ 940
4@@ 937
keer 933
mer@@ 929
verhaal 928
ss@@ 928
hou@@ 927
tal@@ 925
mm@@ 925
est 925
som@@ 920
kwam 919
gesch@@ 916
nie@@ 914
loo@@ 913
geloo@@ 910
hoo@@ 907
doet 902
0@@ 902
verschillende 900
ank 900
produc@@ 900
plaat@@ 899
omen 896
voorbeeld 895
nooit 895
dru@@ 892
; 891
eet 891
lin@@ 889
plaats 889
terug 888
door@@ 888
houden 888
ouw 888
ieve 886
groot@@ 886
buit@@ 885
anders 885
est@@ 884
us@@ 881
the@@ 881
ron@@ 879
Amerik@@ 877
sn@@ 875
cen@@ 874
elke 871
probleem 870
all@@ 870
ch 867
ff@@ 865
elijk 864
ruim@@ 863
bre@@ 862
beel@@ 859
ds 857
nemen 856
chti@@ 853
ard 852
zit 850
water 849
kelijk 847
hen 847
altijd 846
mar@@ 846
jaren 846
ci@@ 845
zie 845
eigenlijk 845
h 843
heden 842
19@@ 841
bed@@ 840
oc@@ 840
waarom 840
ind 839
min@@ 838
ood 838
tra@@ 837
ide@@ 834
technologie 833
3@@ 830
Ver@@ 830
bewe@@ 830
aties 828
wil@@ 826
ist@@ 825
vers@@ 824
ontwikkel@@ 820
werkt 819
steeds 819
foto 818
par@@ 817
uren 817
laat 817
wanneer 816
kant 816
mensel@@ 815
eigen 815
kten 814
gemaakt 813
war@@ 811
um 809
et@@ 809
mee@@ 809
halen 808
maakt 808
ver 807
even 807
ts 806
leren 804
zie@@ 803
hand@@ 799
2 798
pra@@ 797
los@@ 797
tuur 797
rel@@ 797
win@@ 796
kkel@@ 792
stellen 792
hi@@ 790
ijkheid 788
bedrij@@ 786
miljoen 786
gebru@@ 784
On@@ 784
bent 781
pr@@ 780
.000 780
oon@@ 778
val@@ 777
har@@ 777
A 776
hier@@ 775
geld 773
iedereen 773
ontde@@ 772
Al@@ 770
ep 769
weer 769
chts 769
sy@@ 769
as 766
draa@@ 764
Toen 763
samen@@ 763
zegt 763
vragen 762
8@@ 761
eu@@ 761
krij@@ 759
sel 758
md 754
6@@ 754
ite 754
ieke 753
ren 752
alen 751
sne@@ 750
ings@@ 749
lijke 748
jon@@ 746
vroe@@ 746
eerde 745
lang 743
vertellen 743
Mijn 740
ontwer@@ 740
brengen 740
procent 740
woor@@ 737
pas@@ 736
komst 735
belangrijk 734
beetje 733
sc@@ 732
5@@ 729
for@@ 727
pu@@ 727
00 722
ine 720
aantal 719
il 719
ba@@ 719
dollar 718
systeem 717
nieuw 716
vij@@ 713
ad@@ 711
bare 710
Ne@@ 710
wen 709
lei@@ 708
wijl 708
wilde 706
onderzoe@@ 706
vis@@ 704
laatste 701
j 699
hoop 699
gew@@ 699
binnen 698
ans 698
goede 698
mogelijk 698
vier 697
zitten 693
ïn@@ 693
9@@ 690
tegen@@ 689
belangr@@ 689
ari@@ 689
beter 687
ho@@ 686
Talk 685
po@@ 685
ting 685
10 684
In@@ 683
U@@ 683
licht 683
geme@@ 682
elk 682
vandaag 682
to 681
aanse 680
zodat 680
tw@@ 679
gingen 678
Die 676
kel 675
ben@@ 675
moo@@ 674
enden 673
Subtitles 672
Transcript 672
dui@@ 671
ele@@ 668
ooit 668
Op 667
landen 667
grot@@ 667
antw@@ 667
punt 666
kl@@ 664
em 664
ob@@ 664
volgende 662
niets 662
vlie@@ 661
gebeurt 661
moment 660
raa@@ 659
groot 659
St@@ 657
meest 657
nam@@ 656
vla@@ 656
hoof@@ 654
genoeg 654
pt 652
lich@@ 651
interess@@ 650
ander 648
Afrika 647
tje 646
ment 646
oom 645
gedaan 642
ï@@ 641
7@@ 641
vre@@ 635
probe@@ 635
b 633
ling 633
teren 633
beginnen 632
veranderen 632
begrijpen 630
elt 628
gewel@@ 627
1 626
.@@ 626
onnen 625
kele 625
Waarom 625
energie 624
sli@@ 624
kom@@ 623
twee@@ 622
ser@@ 621
deed 621
gels 621
ton@@ 621
werel@@ 620
50 620
proberen 619
emaal 619
tie@@ 618
ë 617
bouwen 616
heen 615
Ch@@ 613
konden 613
begon 612
gezien 612
achter@@ 611
dden 611
geeft 610
ars 609
dra@@ 609
problemen 608
rec@@ 607
betekent 606
samen 606
ve 605
schijnlijk 605
het@@ 603
erv@@ 603
cul@@ 603
eten 602
moeil@@ 601
scha@@ 600
ggen 600
pe@@ 599
sch 598
ali@@ 597
ire 596
kij@@ 595
spel@@ 595
organis@@ 594
un 592
mogel@@ 590
20 590
tro@@ 589
3 588
gebrui@@ 588
8 587
minder 586
mis@@ 584
ssen 583
lie 581
ien 581
land@@ 580
Dan 580
fil@@ 579
gele@@ 573
eff@@ 573
ties 572
or 570
vin@@ 569
oud 569
ran@@ 567
é 567
nat@@ 566
econom@@ 566
wor@@ 565
aren 565
vertel@@ 564
ces 562
mach@@ 562
ters 562
S 561
stop@@ 558
ban@@ 551
qu@@ 550
struc@@ 549
ju@@ 547
kwa@@ 542
nieu@@ 542
itu@@ 541
fun@@ 539
les 538
ite@@ 538
spe@@ 537
are 532
mater@@ 528
teru@@ 525
let@@ 525
Ge@@ 524
hal@@ 523
enor@@ 521
x 519
com@@ 518
sk@@ 516
r 515
bla@@ 514
bet@@ 512
olog@@ 511
ect 511
kind 511
inform@@ 510
beeld 508
6 508
soor@@ 508
soci@@ 507
school 504
mp@@ 503
tion@@ 503
7 503
jec@@ 502
En@@ 502
lic@@ 501
4 496
cel@@ 493
ation@@ 490
net@@ 488
hand 484
ene 483
uur@@ 482
comple@@ 481
stan@@ 478
ili@@ 477
ouwen 476
mon@@ 474
stri@@ 471
speci@@ 471
nu@@ 470
alis@@ 470
stand 470
ving 470
ide 469
India 468
sa@@ 466
fin@@ 463
wis@@ 462
ed@@ 460
neer 457
evolu@@ 456
sec@@ 455
An@@ 453
polit@@ 453
later 452
Chin@@ 452
minu@@ 450
bor@@ 449
fan@@ 448
gener@@ 446
oog@@ 445
av@@ 444
ied 443
ijn@@ 442
spec@@ 441
ut 441
pri@@ 439
wat@@ 438
mor@@ 437
begin 437
gene@@ 437
ma 435
data 435
La@@ 434
ag@@ 431
stre@@ 430
els 430
real@@ 428
t-@@ 422
9 422
bra@@ 419
sin@@ 418
compu@@ 418
lev@@ 418
sing 417
eg@@ 417
project 416
pat@@ 415
int 413
God 413
tru@@ 412
oce@@ 410
fam@@ 410
del 409
goe@@ 409
progra@@ 409
arch@@ 408
30 408
sh@@ 408
tast@@ 408
act 407
dan@@ 406
ir 406
bot@@ 406
ust 406
kers 406
ort 405
ster 402
gin@@ 402
ws 401
ys@@ 401
ong 401
200@@ 400
tech@@ 398
tri@@ 398
stor@@ 396
one 395
ist 394
stra@@ 393
ia 391
olo@@ 390
cu@@ 390
univer@@ 389
am 386
wal@@ 385
dia 384
100 381
mand 381
film 380
simp@@ 380
dic@@ 380
fa@@ 379
maal 379
uro@@ 379
boo@@ 378
contro@@ 377
ren@@ 376
roe@@ 375
comp@@ 375
bas@@ 372
ost 371
aring 370
open@@ 369
log@@ 367
gs 367
go@@ 364
col@@ 363
conf@@ 360
vide@@ 358
co@@ 357
Ma@@ 351
New 351
ica 349
% 349
nor@@ 349
Ok@@ 348
uc@@ 347
tur@@ 347
ris@@ 346
ome@@ 345
cr@@ 344
ool 344
én 344
resul@@ 343
son 340
,@@ 339
ton 338
schien 338
eigen@@ 338
vr@@ 337
theor@@ 337
gende 336
pos@@ 334
experi@@ 334
kil@@ 332
ate 331
gla@@ 330
model 329
tot@@ 328
cep@@ 326
cam@@ 325
De@@ 324
ming 323
zelf@@ 321
bren@@ 320
off@@ 319
B 315
ier 314
é@@ 313
imp@@ 312
alle@@ 312
wan@@ 312
mb@@ 310
intel@@ 309
mot@@ 309
ms 309
kin@@ 301
computer 300
Yor@@ 300
out 295
acti@@ 295
e-@@ 295
fl@@ 294
cor@@ 293
c 293
belan@@ 293
bur@@ 292
z 289
volu@@ 289
tek@@ 289
onge@@ 288
og@@ 287
zel@@ 285
20@@ 285
wit@@ 283
veran@@ 283
pla@@ 283
indu@@ 280
pi@@ 278
star@@ 277
ner 272
indivi@@ 271
bro@@ 271
mat@@ 270
top 268
syste@@ 267
thou@@ 265
ry 264
aarom 261
prin@@ 260
por@@ 260
lec@@ 259
No@@ 258
commun@@ 257
tes 255
TE@@ 253
ning 252
vie@@ 248
uni@@ 248
oto@@ 247
direc@@ 246
solu@@ 246
Y@@ 246
dent 245
000 245
bac@@ 245
sion@@ 244
gre@@ 243
sor@@ 241
eft 241
duc@@ 240
stru@@ 240
fic@@ 239
din@@ 238
tor 237
ill@@ 236
cur@@ 235
gh@@ 235
inf@@ 234
presen@@ 233
lit@@ 233
lim@@ 230
my@@ 229
sig@@ 227
pun@@ 227
design 225
rou@@ 225
cont@@ 225
typ@@ 224
inst@@ 224
cl@@ 224
ullie 222
pop@@ 221
To@@ 221
contin@@ 220
genoe@@ 220
Ri@@ 219
des 219
ject 219
hy@@ 218
arti@@ 218
&#93; 218
fi@@ 218
zul@@ 217
&#91; 217
D 217
miljo@@ 216
disc@@ 215
C 212
pp@@ 212
O 211
re 211
ontwi@@ 210
ó@@ 210
Oh 209
go 209
dereen 209
tic@@ 209
ici@@ 208
jo@@ 208
dat@@ 208
vand@@ 207
tit@@ 206
our@@ 205
OK 204
ots 203
peri@@ 201
gu@@ 201
/ 200
ar 196
car@@ 196
pen@@ 196
yp@@ 195
best 194
stand@@ 194
elk@@ 191
technolog@@ 191
V 189
energ@@ 186
half 186
sub@@ 185
Afrik@@ 185
ub@@ 184
zing 184
pol@@ 184
fac@@ 184
trans@@ 183
grij@@ 183
mom@@ 182
ill 180
prot@@ 178
form@@ 178
chan@@ 174
succ@@ 172
T 172
suc@@ 172
serv@@ 171
è@@ 171
art 169
I 169
U 166
ps 164
Th@@ 163
begrij@@ 163
lar@@ 161
ther@@ 161
ea@@ 160
ey 159
wonder@@ 159
ess@@ 159
ay 157
M 157
sol@@ 156
ure 156
start 155
clu@@ 154
hard 153
G 153
” 153
bil@@ 152
ö@@ 152
anc@@ 151
desig@@ 151
’ 150
pub@@ 150
erg@@ 148
P 148
hop@@ 147
th 146
Af@@ 146
sm@@ 145
ros@@ 145
loc@@ 144
The 144
cap@@ 143
age 142
… 141
– 140
v 139
ity 138
proc@@ 138
dre@@ 137
ore 136
ges 136
ad 136
oun@@ 136
line 134
ce 133
glob@@ 133
vir@@ 133
mes 132
ragen 132
dol@@ 131
xt 131
kno@@ 131
schijn@@ 131
onom@@ 130
lot 130
ater 129
“ 129
ins 128
H 127
ic 124
ouden 123
ans@@ 123
tal 122
ca@@ 119
E 118
not@@ 116
ose 115
ation 114
do 114
exp@@ 113
pres@@ 112
veer 112
the 111
N 110
twe@@ 109
Ho@@ 109
ns 108
dy 108
ly 107
all 106
organ@@ 105
fo@@ 104
W 104
F 103
beur@@ 103
sur@@ 103
up@@ 101
sh 100
ick 100
ace 99
ational 99
enti@@ 99
.. 98
K 98
resp@@ 97
lea@@ 96
pie@@ 95
cent 94
ase 93
up 92
grap@@ 91
our 91
nd 91
res 90
be 90
cer@@ 89
doe@@ 89
fu@@ 88
ph@@ 88
L 88
nolog@@ 87
fig@@ 87
ward 87
‘ 86
mber 86
gh 84
ach 84
nec@@ 84
ice 82
laat@@ 82
ü@@ 82
ids 81
show 80
&@@ 80
verh@@ 79
verschill@@ 79
ss 79
its 79
get 78
ls 78
ors 78
iti@@ 78
ket 76
tting 76
ow 76
face 76
by 76
low 76
don 75
sci@@ 75
ome 75
set 74
put 74
ess 74
shi@@ 72
talk 72
ics 72
X@@ 71
Afri@@ 71
out@@ 70
begin@@ 70
dri@@ 70
been 69
betek@@ 68
ves 68
anim@@ 68
ities 67
Q@@ 67
ary 66
ago 66
ack 65
form 65
R 63
ence 63
ey@@ 61
ty 60
dollars 60
pret@@ 59
alk 59
lob@@ 58
than 58
right 57
parti@@ 57
wn 57
time 56
last 56
Wh@@ 56
ings 56
ance 54
ple 54
my 53
ld 53
ther 53
sho@@ 52
wing 50
X 49
these 49
wr@@ 49
à 49
sts 47
groo@@ 47
live 47
fe 47
are@@ 46
let 46
$ 45
ole 45
á@@ 44
Earth 44
ue 44
elec@@ 43
char@@ 43
od 42
ree 42
wer 42
heb@@ 42
The@@ 42
ich 42
J 42
itten 41
ates 40
proble@@ 39
cou@@ 39
ell 39
tle 39
ye@@ 39
if 38
res@@ 38
ile 37
port@@ 36
see 35
so 33
abil@@ 32
well 32
É@@ 31
Amer@@ 31
ound 30
can 30
ê@@ 30
ion 29
back 29
aga@@ 29
ima@@ 29
any@@ 28
Bec@@ 28
— 28
è 26
ys 26
Y 26
ones 26
ture 26
red 26
for 25
under@@ 25
sion 25
wh@@ 25
° 25
her 24
percent 24
ght 24
ial 24
comm@@ 23
fri@@ 23
old 23
Tran@@ 23
differ@@ 23
ble 23
ses 23
ó 22
ff 22
food 22
í@@ 22
day 22
how 21
soc@@ 21
Q 21
side 21
tion 21
coun@@ 21
ish 21
Z 21
scri@@ 20
eds 20
½ 20
way 19
,000 19
no 19
ations 19
divi@@ 18
ear@@ 18
real 18
One 17
off 17
sic 17
tic 17
lar 17
more 17
ally 16
help 16
bec@@ 16
pic@@ 16
use 16
long 15
beet@@ 15
Sub@@ 15
ous 15
ll 15
each 15
ating 14
+ 14
ative 14
any 14
ï 14
chil@@ 14
ous@@ 14
♪ 13
ã@@ 13
ould 12
kes 12
= 12
q@@ 12
fir@@ 11
Now 11
script 11
It 11
happ@@ 11
quot@@ 11
) 11
ready 11
down 11
life 11
need 11
space 10
cour@@ 10
ever 10
power 10
look 9
able 9
fro@@ 9
ough 9
now 9
say 9
then 8
q 8
² 8
led 8
My 8
ical 8
And 8
he 8
He 8
ely 8
here 8
very 7
story 7
work 7
# 7
à@@ 7
ç@@ 7
ated 7
you 7
ñ@@ 7
tive 7
@ 6
try 6
* 6
world 6
¨ 6
What 6
ged 6
says 6
ä@@ 6
were 6
ying 6
human 6
lear@@ 5
not 5
You 5
will 5
exam@@ 5
bit 5
prob@@ 5
reas@@ 5
ň@@ 5
tions 4
have 4
light 4
ments 4
making 4
´ 4
ways 4
own 4
does 4
with 4
sible 4
body 4
less 4
This 4
ked 4
ady 4
diff@@ 3
`@@ 3
` 3
incre@@ 3
ú 3
sort 3
º@@ 3
Afr@@ 3
Africa 3
why 3
went 3
^ 3
ò@@ 3
dren 3
£ 3
people 2
​ 2
lion 2
( 2
ents 2
They 2
That 2
ú@@ 2
big 2
come 2
interest@@ 2
love 2
î@@ 2
part 2
feel 2
him 2
ited 2
Here 2
buil@@ 2
uch 2
change 2
only 2
apos@@ 2
fact 2
â@@ 2
ì@@ 2
point 2
No 2
system 2
take 2
this 2
but 2
kids 2
second 2
problem 1
ful 1
just 1
sense 1
did 1
about 1
who 1
with@@ 1
comes 1
five 1
away 1
ause 1
å@@ 1
import@@ 1
times 1
throu@@ 1
find 1
ople 1
good 1
where 1
brain 1
little 1
˚ 1
arth 1
person 1
doing 1
á 1
™ 1
place 1
º 1
she 1
got 1
through 1
tween 1
These 1
Ó@@ 1
beau@@ 1
¾ 1
made 1
ved 1
ted 1
building 1
develop@@ 1
ā@@ 1
know 1
into 1
ded 1
ized 1
children 1
ê 1
€ 1
