, 113218
. 96103
the 73172
to 44608
a 43885
of 42894
and 37300
that 32360
in 30864
I 30361
is 26117
it 24684
you 24275
&apos;s 21512
we 19057
And 18150
c@@ 17211
this 15412
s@@ 13807
&quot; 13730
y 13397
on 12872
f@@ 12581
-- 12446
in@@ 12225
s 11996
are 11436
e@@ 11173
a@@ 11033
was 10726
ed 10693
t@@ 10584
ing 10283
re@@ 9989
have 9932
for 9909
an 9805
b@@ 9522
they 9460
p@@ 9423
es 9274
al 9066
i@@ 8842
? 8760
m@@ 8758
at 8590
with 8550
can 8419
one 8275
all 8270
&apos;t 8268
what 8261
about 8118
as 8100
g@@ 8097
en@@ 8067
-@@ 7993
d@@ 7881
So 7815
be 7805
ar@@ 7714
di@@ 7387
de@@ 7292
h@@ 7217
or 7175
st@@ 7144
w@@ 7117
e 7083
al@@ 7083
r@@ 7048
S@@ 7029
: 6989
t 6985
at@@ 6951
o@@ 6783
there 6773
li@@ 6771
do 6737
an@@ 6711
not 6663
ac@@ 6567
ts 6485
y@@ 6455
on@@ 6322
n@@ 6199
it@@ 6166
u@@ 6100
It 6043
&apos;re 6043
ation 5971
or@@ 5764
like 5693
un@@ 5663
people 5643
me 5636
from 5620
so 5536
ly 5517
out 5472
l@@ 5367
ch@@ 5307
se@@ 5305
ity 5215
very 5205
my 5125
A@@ 5115
si@@ 5079
me@@ 5017
st 5007
know 4938
as@@ 4935
er@@ 4909
The 4901
just 4895
th@@ 4884
v@@ 4874
se 4823
d 4779
but 4738
er 4712
ic@@ 4655
ve 4632
our 4611
We 4611
con@@ 4603
up 4587
But 4587
if 4523
le@@ 4522
going 4519
he 4513
M@@ 4480
these 4477
he@@ 4347
n 4291
k 4289
ap@@ 4257
ex@@ 4239
ds 4231
ma@@ 4223
C@@ 4172
by 4163
them 4163
B@@ 4098
us 4075
here 4069
su@@ 4059
ge 4032
ate 4019
k@@ 3997
which 3965
ul@@ 3964
sp@@ 3961
ro@@ 3958
because 3918
think 3903
get 3876
see 3856
had 3769
mo@@ 3759
tion 3734
how 3673
more 3672
ur@@ 3639
when 3639
really 3634
P@@ 3611
ra@@ 3595
ne@@ 3585
ir@@ 3567
h 3564
thing 3562
This 3552
&apos;ve 3517
D@@ 3512
ou@@ 3504
le 3497
ti@@ 3490
would 3442
who 3419
You 3412
be@@ 3401
your 3401
world 3390
&apos;m 3372
m 3349
la@@ 3336
way 3328
o 3318
ce 3314
l 3313
qu@@ 3304
ar 3304
ers 3298
time 3284
vi@@ 3251
ta@@ 3246
were 3242
ri@@ 3238
ies 3232
il@@ 3230
then 3217
ks 3210
ter@@ 3206
where 3197
te@@ 3186
don 3181
p 3162
has 3161
things 3122
their 3118
et 3078
some 2994
go 2959
actually 2935
E@@ 2926
into 2920
ad 2905
L@@ 2889
years 2883
om@@ 2866
tr@@ 2865
will 2856
op@@ 2834
now 2815
th 2809
for@@ 2800
hi@@ 2798
is@@ 2791
able 2771
W@@ 2750
T@@ 2743
el@@ 2719
ment 2713
sh@@ 2712
lo@@ 2694
want 2684
1@@ 2660
wor@@ 2659
H@@ 2648
F@@ 2642
G@@ 2634
other 2623
ol@@ 2607
ence 2583
ent 2578
make 2545
pro@@ 2544
ec@@ 2513
gu@@ 2507
said 2502
ine 2501
They 2500
w 2499
sa@@ 2490
R@@ 2466
been 2461
ot@@ 2449
could 2442
ic 2440
right 2435
Now 2426
per@@ 2426
gh@@ 2426
ons 2424
♫ 2420
ally 2417
ha@@ 2394
am@@ 2394
got 2380
ure 2371
ther 2366
king 2358
os@@ 2330
ture 2314
ted 2311
come 2307
ting 2282
something 2279
ter 2274
oo@@ 2262
ms 2260
gi@@ 2253
ving 2236
em@@ 2219
ver@@ 2216
ad@@ 2215
little 2214
much 2195
I@@ 2193
N@@ 2188
O@@ 2186
ph@@ 2182
we@@ 2181
z@@ 2179
ked 2175
les 2174
over 2173
That 2159
sc@@ 2159
ght 2158
x@@ 2158
most 2150
ous 2150
ci@@ 2149
c 2143
say 2135
ty 2125
two 2125
pa@@ 2111
ess 2108
than 2104
work 2097
ice 2089
oun@@ 2089
no 2077
; 2055
first 2053
look 2051
J@@ 2043
im@@ 2033
sion 2025
our@@ 2023
back 2016
pre@@ 2014
those 1992
ated 1991
kind 1990
tur@@ 1990
ge@@ 1973
old 1972
par@@ 1972
new 1962
ch 1953
life 1946
body 1946
gr@@ 1938
his 1935
bu@@ 1934
pl@@ 1933
ab@@ 1902
ru@@ 1900
What 1889
br@@ 1860
also 1859
ls 1856
de 1830
wa@@ 1828
only 1827
ss 1824
en 1820
comp@@ 1817
str@@ 1808
lot 1803
end 1789
pos@@ 1778
ding 1777
she 1765
A 1753
There 1751
ical 1741
any 1739
&apos;ll 1732
i 1729
wh@@ 1724
down 1715
ful 1708
tra@@ 1707
x 1691
ying 1690
ke@@ 1683
In 1682
der 1674
fe@@ 1661
many 1658
did 1658
happ@@ 1658
take 1656
au@@ 1656
g 1654
around 1634
no@@ 1629
good 1627
mar@@ 1624
need 1621
ing@@ 1620
pe@@ 1615
ves 1614
its 1605
bi@@ 1594
lea@@ 1589
day 1586
ning 1584
U@@ 1584
ga@@ 1583
tly 1575
tu@@ 1572
put 1556
men@@ 1556
ws 1548
pla@@ 1545
fa@@ 1542
den@@ 1534
ni@@ 1528
go@@ 1522
bo@@ 1514
ved 1512
cre@@ 1510
oc@@ 1508
0@@ 1507
ded 1504
her 1500
different 1500
K@@ 1500
even 1498
gen@@ 1497
po@@ 1495
rel@@ 1494
doing 1486
da@@ 1485
b 1470
ans 1467
Well 1467
through 1465
gre@@ 1462
als 1450
He 1448
plan@@ 1445
being 1441
and@@ 1440
rec@@ 1435
ve@@ 1434
man@@ 1429
cu@@ 1421
ong 1417
same 1415
col@@ 1415
sur@@ 1412
id 1411
If 1410
ary 1402
any@@ 1396
some@@ 1393
side 1387
story 1384
tre@@ 1382
ant 1381
ite 1373
every 1369
fin@@ 1359
use 1355
ations 1349
mi@@ 1346
mat@@ 1343
sci@@ 1339
wr@@ 1337
age 1327
ose 1325
ste@@ 1316
the@@ 1313
ating 1310
called 1308
ven@@ 1305
fu@@ 1305
2@@ 1301
pr@@ 1300
ys 1297
j@@ 1295
tal@@ 1291
inter@@ 1282
enti@@ 1274
ie@@ 1273
ati@@ 1271
cen@@ 1270
ces 1267
three 1261
ard 1258
ze 1249
made 1248
ke 1247
ss@@ 1245
ges 1244
ob@@ 1244
self 1236
&apos;d 1235
r 1233
do@@ 1229
talk 1228
stu@@ 1227
hu@@ 1212
ever 1210
ea@@ 1204
year 1201
ide@@ 1197
ial 1193
red 1193
ely 1191
com@@ 1186
ven 1186
car@@ 1185
all@@ 1175
bl@@ 1172
sta@@ 1170
well 1166
chan@@ 1165
fi@@ 1162
am 1158
ca@@ 1157
tions 1153
us@@ 1153
ics 1151
ically 1151
why 1149
ion 1143
to@@ 1138
buil@@ 1136
human 1129
el 1127
bil@@ 1117
last 1113
lic@@ 1113
TED 1112
percent 1110
ten@@ 1109
ned 1107
led 1107
idea 1106
sho@@ 1104
change 1099
ima@@ 1096
gh 1096
over@@ 1086
great 1084
dic@@ 1081
pic@@ 1080
pri@@ 1079
In@@ 1078
ect 1076
co@@ 1074
ser@@ 1070
fact 1070
went 1069
Y@@ 1067
lear@@ 1067
ance 1065
Wh@@ 1064
Th@@ 1062
spec@@ 1062
ates 1059
ind 1059
kes 1058
big 1057
another 1056
thou@@ 1054
low 1048
tru@@ 1047
ling 1046
find 1045
tell 1044
ig@@ 1043
produc@@ 1040
didn 1038
duc@@ 1036
5 1035
sort 1035
.@@ 1031
ago 1031
thought 1029
ble 1027
coun@@ 1027
show 1026
ach@@ 1023
te 1022
bot@@ 1022
ars 1021
bit 1018
started 1018
place 1018
gra@@ 1017
wing 1016
off 1014
ome 1005
res 1005
give 1004
sm@@ 1003
por@@ 1001
ger 998
uc@@ 998
ings 992
course 988
,000 988
with@@ 982
sin@@ 981
il 979
est 977
ist@@ 976
jo@@ 974
should 973
bas@@ 972
important 971
ors 971
iz@@ 971
water 968
experi@@ 968
cor@@ 964
loo@@ 960
kno@@ 959
own 958
mon@@ 958
mu@@ 958
cou@@ 957
today 957
cul@@ 956
let 955
wn 953
ef@@ 951
mean 949
stor@@ 945
used 941
&apos; 939
tic@@ 939
times 939
om 938
does 938
ities 936
min@@ 936
after 934
try 929
ters 928
! 926
es@@ 924
problem 924
ood 923
man 922
cr@@ 922
every@@ 922
before 920
gro@@ 920
lu@@ 919
ied 919
ei@@ 917
V@@ 916
simp@@ 916
sts 916
mil@@ 912
4@@ 910
start 910
ft 908
19@@ 905
soc@@ 901
ali@@ 900
ound 899
came 898
shi@@ 898
nat@@ 894
part 892
better 890
ens 889
next 887
sible 886
ments 881
ff@@ 881
0 878
ps 878
never 878
mor@@ 878
technology 877
him 877
sen@@ 876
ep@@ 875
again 874
whole 874
wer@@ 873
art 872
der@@ 866
ook 865
Amer@@ 863
comple@@ 863
How 863
looking 861
long 853
exp@@ 852
sy@@ 852
system 851
Ch@@ 850
still 850
war@@ 849
Because 849
grap@@ 849
wi@@ 848
du@@ 841
might 838
3@@ 837
ir 836
fam@@ 835
point 834
bre@@ 832
cer@@ 831
ish 831
ep 828
comes 827
together 827
each 823
lar@@ 822
mp@@ 821
ited 819
struc@@ 818
wer 818
few 817
too 816
bor@@ 812
ily 810
done 809
ging 805
When 804
question 801
cel@@ 800
sel@@ 800
incre@@ 799
5@@ 799
fl@@ 799
act 798
’ 798
less 796
ost 795
est@@ 794
lar 794
love 792
million 792
ns 791
doesn 791
found 788
ile 787
sk@@ 787
between 783
re 780
ust 779
loc@@ 779
commun@@ 778
face 778
brain 777
fac@@ 773
vers@@ 773
ack 771
tri@@ 769
design 768
Thank 766
itu@@ 765
10 765
vel@@ 764
nec@@ 763
gener@@ 763
under@@ 763
ative 761
sh 761
um 761
real 761
ach 756
of@@ 754
ver 750
away 748
reas@@ 748
children 747
sol@@ 746
ins 744
ess@@ 743
app@@ 743
8@@ 743
ged 742
wanted 741
call 741
sec@@ 740
op 739
lin@@ 738
ici@@ 738
person 737
light 734
tion@@ 732
understand 731
tel@@ 730
fun@@ 726
olog@@ 724
ari@@ 723
cur@@ 722
ue 722
cep@@ 719
ry 719
coming 718
OK 717
gin@@ 717
vir@@ 716
dre@@ 715
6@@ 715
four 714
vol@@ 714
proc@@ 714
anim@@ 712
sic 712
Talk 710
mb@@ 710
anc@@ 705
live 703
na@@ 701
ill 699
een 697
ther@@ 695
f 694
trying 692
working 692
kids 692
ents 690
Africa 689
iti@@ 689
disc@@ 689
always 689
00 688
Here 685
St@@ 684
line 683
may 683
stuff 682
ple 681
ros@@ 680
solu@@ 679
bel@@ 678
9@@ 677
cap@@ 675
oom 674
thinking 673
gs 673
Subtitles 672
Transcript 672
jec@@ 670
money 669
sense 668
example 661
ye@@ 660
believe 660
fri@@ 659
ran@@ 659
econom@@ 658
everything 657
using 657
ses 657
One 655
eff@@ 655
ldn 655
ational 653
quite 652
sub@@ 651
vie@@ 650
took 649
lan@@ 649
2 649
resp@@ 649
selves 647
pu@@ 645
says 645
ys@@ 645
out@@ 644
power 642
energy 640
tive 640
dy 640
val@@ 639
making 637
lec@@ 636
ba@@ 636
stand@@ 635
hop@@ 634
These 633
enough 633
interesting 630
parti@@ 628
dollars 628
data 626
country 624
heal@@ 624
mber 624
abil@@ 623
school 623
five 622
building 622
7@@ 622
tely 621
ten 619
mis@@ 617
real@@ 617
develop@@ 616
land 616
happened 615
pret@@ 615
getting 615
ay 614
beau@@ 614
sig@@ 613
trans@@ 613
pp@@ 613
tal 610
food 610
not@@ 610
feel 609
form 607
create 604
my@@ 603
help 603
ans@@ 603
ho@@ 602
sing 602
My 600
ones 600
ized 599
maybe 598
hel@@ 598
acti@@ 598
Ma@@ 595
second 595
kin@@ 595
space 595
number 594
No 594
tries 594
probably 593
ia 592
Earth 591
inform@@ 590
ale 590
del@@ 590
ous@@ 589
char@@ 588
are@@ 588
... 586
lim@@ 585
ber@@ 585
ready 584
arch@@ 584
ick 582
pat@@ 582
har@@ 582
ase 582
ll 582
20 581
tic 579
lion 579
ear@@ 577
va@@ 576
ots 576
inf@@ 574
et@@ 573
50 572
tor 572
wat@@ 572
desig@@ 568
form@@ 567
ket 565
dri@@ 562
clu@@ 562
star@@ 562
fig@@ 559
chil@@ 557
pie@@ 556
set 556
top 555
per 554
elec@@ 554
ken 554
hou@@ 551
An@@ 549
ore 548
son 548
bac@@ 548
nor@@ 547
ey@@ 546
best 544
pub@@ 543
organ@@ 543
ell 542
up@@ 542
ward 542
ways 541
half 540
her@@ 538
minu@@ 538
dent 536
pen@@ 535
ner 534
sor@@ 534
ster 534
los@@ 532
proble@@ 530
ron@@ 529
ree@@ 529
ster@@ 528
tes 525
prot@@ 525
oto@@ 516
uch 515
stri@@ 514
vis@@ 512
Ri@@ 512
dra@@ 512
zing 510
ju@@ 506
8 503
differ@@ 503
tw@@ 501
din@@ 501
bro@@ 501
cl@@ 501
God 497
omen 495
pres@@ 495
contro@@ 495
ie 493
pas@@ 493
oon 492
contin@@ 492
off@@ 492
wal@@ 491
ome@@ 487
og@@ 485
lit@@ 485
S 484
cam@@ 484
glob@@ 482
mach@@ 482
dr@@ 481
India 476
speci@@ 476
pop@@ 474
1 473
wonder@@ 473
des 472
No@@ 472
univer@@ 471
ger@@ 470
sn 468
mm@@ 467
computer 464
ed@@ 462
En@@ 460
direc@@ 458
nu@@ 457
Al@@ 457
ut 456
Chin@@ 456
vide@@ 454
project 448
sion@@ 447
presen@@ 446
ur 445
inst@@ 444
progra@@ 444
conf@@ 443
hard 443
imp@@ 443
ace 442
comm@@ 441
hand 441
serv@@ 440
hand@@ 440
fic@@ 440
ank 439
later 439
typ@@ 438
nam@@ 437
net 436
uni@@ 436
moment 435
ool 433
ica 432
stre@@ 430
ree 427
7 426
succ@@ 421
New 420
oce@@ 419
men 416
&#91; 415
&#93; 415
ag@@ 411
u 411
ren@@ 410
quest@@ 409
eds 409
mot@@ 407
tit@@ 407
ond 407
ation@@ 407
ris@@ 406
ders 405
4 405
3 403
200@@ 402
af@@ 402
100 400
oor 399
hy@@ 398
9 397
mer@@ 395
Oh 395
compu@@ 395
win@@ 395
mid@@ 394
arti@@ 394
6 393
sch@@ 393
sli@@ 392
e-@@ 391
dia 391
cont@@ 390
ton 388
begin@@ 388
boo@@ 387
pol@@ 387
ich 387
fe 383
ont@@ 380
polit@@ 380
fil@@ 380
30 377
gla@@ 377
res@@ 376
evolu@@ 376
kil@@ 372
model 372
vo@@ 370
id@@ 370
interest@@ 366
eld 365
mater@@ 363
dig@@ 363
ject 361
bur@@ 360
ming 358
indu@@ 358
open 355
De@@ 354
ker 353
indivi@@ 350
port@@ 350
pers@@ 349
t-@@ 348
van@@ 345
aring 345
ist 345
happen@@ 343
lev@@ 342
scri@@ 341
tting 340
theor@@ 340
spe@@ 339
V 334
prin@@ 334
ek 331
uro@@ 331
han@@ 330
ort 330
tro@@ 329
resul@@ 329
intel@@ 328
eg@@ 326
pi@@ 323
bec@@ 322
tually 321
av@@ 319
beg@@ 318
syste@@ 318
aga@@ 318
B 317
20@@ 316
ple@@ 312
net@@ 311
gen 308
kel@@ 304
diff@@ 301
kers 299
land@@ 299
int 298
ele@@ 298
technolog@@ 297
Yor@@ 296
alk 296
D 293
Ok@@ 293
ey 290
tle 288
els 285
ties 285
wil@@ 281
em 281
ben@@ 280
wel@@ 279
od 277
La@@ 276
ow 276
wit@@ 276
fir@@ 274
ire 271
ater 271
dan@@ 270
ban@@ 268
tot@@ 268
film 268
peri@@ 267
olo@@ 266
wan@@ 265
ill@@ 264
ople 262
den 262
dru@@ 261
open@@ 260
log@@ 260
volu@@ 257
stra@@ 255
Ne@@ 254
stan@@ 253
die 250
Afr@@ 248
vor@@ 247
C 246
spre@@ 244
Z@@ 242
,@@ 240
met 240
z 239
stru@@ 238
bin@@ 237
ole 231
tech@@ 229
sla@@ 229
eer@@ 228
Af@@ 228
mes 227
alle@@ 226
elt 226
T 225
oe@@ 225
yp@@ 223
ld 219
oor@@ 217
bra@@ 217
exam@@ 213
rou@@ 213
ief 213
ub@@ 212
pt 212
very@@ 209
xt 208
begin 207
ik@@ 202
To@@ 195
sten 194
organis@@ 193
ably 192
ili@@ 192
vin@@ 190
tast@@ 188
stand 187
sle@@ 186
Ge@@ 186
P 184
let@@ 181
oog@@ 181
ma 181
door 179
aren 179
gene@@ 178
dat@@ 178
dden 177
ide 176
fan@@ 176
M 174
ste 173
ause 172
devel@@ 170
enor@@ 168
gel@@ 168
gan@@ 168
ybe 161
ould 161
stop@@ 157
G 155
soci@@ 154
H 154
arth 153
/ 151
TE@@ 151
oud 151
ton@@ 150
ff 149
ig 149
Q@@ 149
Ho@@ 148
deed 148
onom@@ 148
quot@@ 146
wis@@ 144
un 140
ene 139
On@@ 138
E 138
O 137
itten 136
sne@@ 136
hal@@ 135
bla@@ 134
dollar 131
import@@ 131
divi@@ 130
thin@@ 130
ieve 130
ough 129
F 129
ze@@ 128
Ver@@ 128
alis@@ 125
uit@@ 124
mom@@ 123
onder 122
throu@@ 120
ids 120
pra@@ 120
fo@@ 120
mee@@ 117
X@@ 117
fro@@ 116
The@@ 112
zi@@ 111
na 109
W 109
q 109
len 108
ier 108
&apos;@@ 106
sl@@ 105
L 105
lie 102
dol@@ 102
mand 99
lob@@ 99
nd 96
K 95
R 93
hoo@@ 93
zen 92
dn 90
pun@@ 90
eu@@ 87
$ 85
suc@@ 85
van 85
dit 84
cour@@ 80
ker@@ 77
N 77
Dan 77
ert 76
erv@@ 74
cent 74
ij@@ 73
prob@@ 72
bed@@ 69
ander 67
zon@@ 67
bet@@ 66
za@@ 64
X 62
ken@@ 60
000 60
aten 60
pen 59
weet 58
nolog@@ 57
heel 57
sn@@ 56
v 56
ere 54
ite@@ 52
- 50
door@@ 48
kl@@ 48
aa@@ 48
uit 47
ien 47
zo@@ 46
het@@ 44
ik 43
ein@@ 43
U 42
J 42
lie@@ 41
twe@@ 41
ko@@ 40
hier@@ 40
tie 39
&@@ 38
ga 37
q@@ 37
dig 36
ady 36
erg@@ 35
dan 34
Bec@@ 33
onge@@ 33
af 33
ren 33
Y 32
hoe 31
dren 30
kan@@ 30
oon@@ 29
Q 29
kle@@ 29
sen 28
gens 27
ou 27
spel@@ 25
Tran@@ 25
alled 24
energ@@ 24
titles 24
Z 23
gev@@ 23
gels 23
wel 21
onder@@ 21
eens 20
tie@@ 20
groo@@ 20
script 19
% 19
mee 19
é 18
minder 18
een@@ 18
+ 18
sie 18
onze 17
nie@@ 16
Sub@@ 16
erd 15
del 15
tween 14
hen 14
stel@@ 14
dus 14
kel 13
geb@@ 13
mensel@@ 13
moo@@ 13
gether 13
eel 13
lei@@ 13
sch 12
# 12
het 12
ö@@ 12
eft 12
– 11
lich@@ 11
) 11
De 11
bent 11
sel 10
Ze 10
apos@@ 10
— 10
ige 9
elen 9
dt 9
á@@ 9
zo 9
befor@@ 8
eet 8
ged@@ 8
é@@ 8
ù 7
som@@ 7
kwa@@ 7
kon 7
ende 7
j 7
oel 7
cht 7
twee@@ 7
veran@@ 6
oren 6
wat 6
vier 6
je 6
bare 6
ó 6
hem 6
ü@@ 6
( 5
vand@@ 5
toe 5
iets 5
@ 5
uren 5
probe@@ 5
nu 5
hun 5
anders 5
iden 4
aan 4
atie 4
zie 4
ñ@@ 4
lars 4
í@@ 4
= 4
zel@@ 4
aties 4
kra@@ 4
leven 4
elk 4
kun@@ 4
roe@@ 4
è@@ 4
ã@@ 4
zor@@ 3
zie@@ 3
ings@@ 3
aan@@ 3
ó@@ 3
beel@@ 3
Afri@@ 3
aam 3
ä@@ 3
kan 3
^ 3
hoe@@ 3
raa@@ 3
ben 2
eten 2
ù@@ 2
â@@ 2
wen 2
ï@@ 2
aal 2
“ 2
” 2
Afrik@@ 2
lang 2
gele@@ 2
scha@@ 2
samen@@ 2
Wat 2
* 2
É@@ 2
sche 2
eren 2
beet@@ 2
jon@@ 2
heen 2
alles 2
jes 2
.000 1
grot@@ 1
Je 1
erg 1
ele 1
kk@@ 1
ú@@ 1
goed 1
bij@@ 1
zal 1
tot 1
doe@@ 1
alen 1
º@@ 1
heb@@ 1
˚ 1
erde 1
… 1
cht@@ 1
gesch@@ 1
isch 1
geme@@ 1
ò@@ 1
à@@ 1
ê@@ 1
√ 1
± 1
aar@@ 1
£ 1
ā@@ 1
aar 1
ç@@ 1
Ç@@ 1
hoop 1
meer 1
kij@@ 1
